0000100100001100111000100000000000000000110101000000111011111001
1111100100101100000000000000011100010000001101001111011111101111
0011100000101101111001110000001100001001111010110010111101001110
1111000011101101001001101111111000010101111110100000111000111100
1110001100010110110111100000110000001101111010100000010000110010
0011100000101111000000000010001111110111000111010000001000000000
0010110000001110000000001110110011010100000011100000110011011011
0011000111011100000010010001001111110100111011100000101111010111
1110011100001111001111010000100100101000000100110000101011101011
1110000111011000000000001110101110111011001000101111001000001011
0000010000100011000110100000110000011101000000001111000111110011
1100000011110100000100000000101011101001111000000001110100101111
1110011111111010111001100011010100101110001100001100011011100001
0001001000000000001000100011011000100110001000010000011100010110
1111101111110011000000010011010111010011000111001111001011110111
0010011000010000111011101101110000100111001100100010111000010001
0001011100010111111111100011111100000000111100111110000000011011
0010010000010100000010001110110111111110111000100000000000000001
1110110000100101000101000000110011111011111011010001100000000000
0001101101000010111011110000011111100011001000011110101000101001
0000000011110000110100001111110000010111000101000000000000011001
0101001100001010001000000010001000100111000110011111001011100000
0011110100010100111101100001111100010100111110110000110011110111
0001110100100101110010111111101111110000001001100000101111110100
0000111100010001000010010001110010100101010000111111010100010010
1111011000000010001000110000101100011100001101000000000011000001
1101101011111011000110001111111011100011111011011110001100000111
1101101100000111110011101111101000010011000110111111100011111101
1110110011111000000000000001011111100111000111100001101011011110
1110011100111100111001100000000000111111110010110000100011110011
1111110000000000000101000011001011101111111100100010000100000111
0000011100110000111111100000100100111101000001111101010100001011
0000101100010001000011001100110100000000111011010011111111011110
0000000000011001100100101101101111001110111000110001011000010000
1110111000001101111110110000100111011111000000001111001011111001
0000100000000000000111110001000000001011111011100001101100001111
1011001100100000000101011110101100000000000001011111110111101100
1111010011101100111110110000101011100100000011010000100000110000
1101010010110011111110110000010100000101111110001010100100001110
0000101011110100111001001101001100000101000001010001011111100111
1101010000010110111010111101100111011100111100111011100011001100
1101111100100100000010100000111000011001001011000010010000000011
1110010011100101000100000000000000100111011011100000001111100111
0000011011100100001001001110101000000111000110000000000011110100
0010011011110001000000000001100111111101001111111111000011110011
1110011000000100111010101100100111101110000100000001010111101011
1011001100000000001011100000111100011111001010010000000011110110
1111001000011001111100000101000000001100111110101101100000000000
0001001000000101111100111101010111100110000100101110000111010011
1101000100010100110111110001111000011110000010011100110000001000
0010011111100010111011100000011111110100001110010010010011101010
1111000111101010001111100001110111111101111100110000000000110111
0001001100010000000010000001010000100010111100000001010000001101
0010010000011000110010010000000011101101000101101100001100011010
1111010111010000111101000000000011101100111010011111010100010001
1111011111010010000101100011001000110011000111100010110100011011
0001110100101010000110010100100000100010111101111110110011111010
0000000111100110111011001111000111100000000011000000100100010101
0010011100100110001000101111101000100100111011001110101000000111
1111011111110010000000001100101111100111111001110010011011101100
1111100100000000000000000010011011101000001100101101111100110011
0000100011101001111000000001001011110010000101110000111000110110
0000110000100111101110100100010100000011111001011101101010110111
1111010000000011001011001111001100111010110001111101111011100010
1101101111110000110110010001110011101110101001010010001100000101
0000011111110110111110111100001000000111000011001110001100001110
0011100011100010110111100001100111010010000100000000010111100100
0000011100000000000110001111001011110110000111001111100100010101
0001000111010110000100011110101100010101111101100011101111100100
1111010000001001001010010011000111110111111111011111010100000100
1110010111100110111010011101011000000000000111000000000000011111
1101010100100101111111010000110011100011111011001111000000010111
1101001011101110000101001110010011101110111111010000111100000010
0011001000001101000001110011010000011101000100010100001111010110
0000011100110101111100100010111100000001111101001101110100011001
0010000011101000111101001101110010111000111000101110100111101101
1111000000001010001101101110000100001111111011001101101000001000
1110011000000000111011101101010100100001000010000001000100011101
0001111111011000000001001100111000000000111101111101110100001111
0010010011110001001001100001001011110101111110001100111000010010
