1110110011111101000100001111010100000000000001101111111000001100
1111110000100100001101000000100111111110111101000001011100010101
0010101000011000000001101101110011100010111101111110100100000011
1110101011111101111000111101101011101111000011100000000011110000
0001101000111110001110010001100000001110111101100000000000110010
0000101100000011000011100001100011110010110111011111110111011100
1111100011110001000101001110111111111001000101111111111100001110
0000011100010001000000110010010111111101111010010000000011110101
0010011000011101000010110000010111100010110110100000110000000010
1011100111110100000010110000100111101111111100101111110111111111
0000011111110001000010110001000100010000000100011111101011110000
1111010111101011000001010000110000010001001001100000111000010110
1110000111111010111111101110100100000011111110110000111100000101
1111111100011000111101100000001011100001000011111111101000001100
1110111011111001110001110000011000101010000000001110001100010010
0001100100011001000011000001010011110111111001010000100000010011
1111100111000010001000000000000011100101111110110001110100000100
0001100011101010000010001101000011110100000001000001101000000000
1110101000000101000001110000000000000010111101100000000100000010
0000101000000100000100001111001011101111110100011100111011010110
0000101111110111111010001101110111001100110000111101101100000101
0001011011010110111010011111010100011010001100100001000000001000
1111101100111101001101110010011111110110111101000000111100010110
0010000100011010111100101111101100000101000010110001100100011101
0000111000001001000001000000011000010101111110010000110011111010
0000000000001001000010110000000100001110000001100001111000011011
1111011000000100000110100000001100000000000100110000010100000000
1111001000001000111110111110101100100000001010000001010100001011
0000100100000000001111000011101000101001111101111101110100000101
1111110101011101010011101111010111110010111001101110110000000010
0010110000011011000000001111110000000000000000110000011000010100
1111101011101110000011010001011000010011000000111110110000000000
1111101011111011111110001111111011101100111101111111001000001101
0000001000000111000100001110110100110001010100100010110100000001
0000110000010010111101101111001000010111111001110000011111111010
0000110011110111111110100000111111110100111000011111110000010111
0000111000110101001011000000111111101000111101011111011111110110
1110111000010001111100001111100000001111000111110000111011111101
0000010000011011001000110000001000000000000101100000111111100011
1101000111101000111111000000100011101010110101011100101111001000
1100011011011010000010111111001111000111000001011111101011111100
0001001100100011000001110000010100001001111100101111011000000010
0000011100000111000100011110101111100001000010111111101011111100
1110110011111100000100100001100100000110000001100000000011101001
0001101100000110110000001101001111101000000000100001111100110101
0010101011101111110001101111000100000111001001000011110100000011
0001100000011011001000101111001011111101111100100001001100100010
0000110100001010000001000000100000000000111101001111100100000000
0000000011111100000101010000000011110110111110101111100111110010
0000011000000001111110111111101011011111111011101111010100001000
1111111111101111110011101110010010111100111011100000010100011111
0000000011100010111011100000111100000101111101010001001111100111
1101111100010101001011010000100111110001001001001111010111010000
0000110100011100111000010000010111111110000101111111100000000000
1110010011011000000001110000011000010101000011100000000000000010
0000101000010010000011000001100000001010111011010000111011111101
0000000100001000000001100000001000001000000001100000100111110111
1111101000000000111011011111010000000101000111001111010111101110
1111101111010000001100100011001000011101111100000000001100011010
1110101000001101000000110000100111110111000001110001110111010111
1110100000011011111001111111001011111001000100110000110100000000
1111011111111001000011110001010100011000000011101111100100000101
1110011011111101000101110010010100111010001101100010110100000000
1110101011110111000000000001010100010000000100010000011011110100
1110010011011101110101100001100000001010111001000000100100010110
1111011000000000111010001110111111110110000101110011000100010000
0001000000000010000101010000000011111100111111110000110100000001
0001101100101110000111100001001111110110000100110001101000011001
0001101000001010000100111111110111110010000011010000100011111011
1110111000000110000000001111011000110000000100001110011011100100
0000000011011100111010111111100100011111000100111111011000001011
1111101011010101111010100010011011110100000000011110110011111101
0010000100101011000000111110100011111001111111110000111000101010
0010010100000001000000100001001011110111000100000001011011111001
1111101100001110000011100001010011110110000100100000000011100011
1101101100010010000011100001000111101111111010111100100011011000
0000101011111000000101010000110100010011110001100000101000001111
1111001100000000000010001101001100000000000111010010101011110010
1111100000000100110001111101100000011101000111100000011111111011
1111100100001011000000000001010011110011000100011110101011101011
1111110000010100111110001111111100010000000110011111100111111010
0000000011100010111001010000101100100000000010011110011000011011
0001100111111100000001000000101111101000000001010000101111111011
1110111100000101111101011111001011100001110010001110000111110001
0001000111110100001001000000000000010010111010011011010111101011
0010101100111011001111010001011111101000000010100001000000000100
1110001111010001111011001111101000011010000000101111111100000000
1111010111111010110111101110111111110010000000000000000000010100
1110011011110100111110010000000000000000111000101110000000000100
0000110000001000111010111111101011011000110101000001111100001100
1110101011101110000100000010001000110000000100010001010000001000
0001001100010110001010010011110100001001111011001111110000000011
0000010111111011000011001110110011110010111100111110011100000000
0000011100100111000101000001001100000000000001011111110011011000
1111011000101011001111000000100011110111000000000001010011101100
0000100011101110000011001111110100010011001100010010101111110010
1111100100000101111111110001011100010000111010110000001000010010
1111101000000000000011111111011011110000000010000001010000000011
1111001011110000111111001111111111110010000000110000110000001110
1111111000000011000100000000110100010111000100010001100011110111
0000000000001010000011110000110100001111111011101110000000000000
0000000000000101000000101110110011111101110110011100011111001111
1110001100000100111011110001100011110110101101001110001111111010
1100001011100101000000010001011011101101110101011110010100010101
1111110000001110111110111110111000000010111000110000000111110110
1111100100000000111111000001001100011011000001101101110011110001
0000100111111100000011010001011111111100111011001111101100011000
1110111111110001110010001100111111100101000010000000110100010101
0000001111000110110111110001100011110000111110001111001111101000
1111110100011000000010011111110111111101111110001110100000001111
0000001100001011000000010000111100001110000000000000001100000011
1110100111110100111100111111101100011100000001110000000011110101
0000101100011100111010110001101000001000111111010000001011111010
1110010111011011000100000001000000001101111001101111101000010100
1110000000000101000110010010010111111111111110100001101111100111
1110101111100100111110101101110000001110111111111110000100011011
1111001011100011000010101110100100010110000001000001011111111011
1111010111110100000000010000001000001011111001110000110000001011
0000010011110110111010101101011011111010111010111110011111110100
0000001111110101111111011111010011100111111010000000110100001000
0000011011101100111111001110100011111010111010101110100111101000
1110100000000000111110100001100000000010000101110000000100000001
0000111111101100000010010001011111110000111000111110110000000110
0000000000000001111001111110010111011001111110010000011000001011
0000000100000000110110000000110100011011001101100011101000000010
0001001011111110000001010000001100100011000100010010100011100101
1111110100000011111010110011100000001100000111101111101111110110
1110001111011101001001000010110000011011111111001110110000000000
0001001011101110000011111111011111101001000000000000111000010000
1111101100011011111111000000111100010110000010010000000000010111
0000110111110011111101110000000000000010001101010000010010100101
1011100011001100000010000000000100000000000000000000000000000000
1110111000010110111110101111010011110011001010110001101011111100
1111000011110111000000001111001111110100000000001111110100010010
0001110000000001110100001100110011101001000000000000001100010100
0000010100101111001001011111101011110010111110011110011111111110
1110110011110000000010100001011100000101000000001111101000000000
0000000011101011111100001111110111111011000111100000110011000101
0000000001001100111101100001010000100100000001101101010000000010
0010010100010111000101010010001100111000000000001111011100000011
1111011111101000110100101111000111110100110111011110001111110011
1110110111111100000100100000001100000001000100001111110011110011
1111010111110011111100101111010111110110111111101111111111101101
0000011000010101000111011111100111111001111001101110100111110101
1111011000110010000111110000100100010010000110001101010111101101
0001110100010111000011100001010000001000111010000000000011110101
1101111011101000001000011111110011110001111011011110100000000111
0000100000000011111111100000001111111110000100110000011111111111
0000011011110011110111001101010000011000000011111111001000000010
1111011100111101111111001111001011111010111101111111100011100010
1110001111010110111110010001100000001011111111110001000000010110
0010000000010010000010010001011011110000001001100001101000000000
1111110100010010000011111111010011110010111100001110011100000101
0001101111101001111110010000000000010110111101011110011111111011
1110110111111011000000101111000000000101111011010001100011111100
0000000000010001111010101110001011011100111111100000111100001111
0100000000100001000111011111000100010000000001000001011000001011
1111010100000000001011000001110011110101111100011110000000000000
0000001101001111000011001111101011101001000000111110101111111010
1111111000000110000000110000000000010101111111110000111100001000
1111101011111010000010001111111000010010111101100010000111110011
0000010111100110110111111100100011011111000011100001111011111101
0000111111011000110110101110011000010011000101011110111000011001
0001100011011101111001100000110100000100000101000000001011111101
1111011111110110000010101110110100000101111011101111101100000100
0001001000010100111100101111111000001111000001101111110011111010
0001001111110010111101111111110100110011000111100001010000000000
0001000011111110000000000000110111100001110011111110110011101000
0000110111001011111101110000010011111101111101010000000100010100
0000110100011011000110010000011111110011000110101111000100011101
0010101100100000111111100010100000001011000000001110111011101110
1111001011101111111100110001000000001011000011001111000111101101
1111110111100100000010000000000000001100000110100000001000010011
0000101100110000111110111111000011111100110110111111010100011100
0010110100001111111111100001101000110100111100011111011111111110
1111001100001111000111001111001011111111000111000010001111111001
0001110111011111111101110000011000100000111010111111001100011111
0000100100100000001101100000100111110001111010111110110111101101
0000010011111010000100111110110011111001000100100000110000010111
0010001000011010000000100001000111111001000011100001011111111101
0000000000000111000010000000000011101100000001111110111011101111
0000101000010000000101001100010000010000000010100010011100001011
1111111100100011000001101111110000000110000011011111010011101111
0000011000010101010100000011001111101011000010001111010100000000
1110101111111111000001101111001000001100111111010000110100010000
1111000111101000000010111111100011101100000010001111010000100001
0000110100011001000000101110111011101100000000110000101100001100
1110110100011001111110001111111100100001000001010000010000011100
1110111000010000111101101111110011111110111001001110010011100011
1111111011111111000111101111101011110111111111110000010111101111
1111011100000111111110011111000000011011111101100000111111111011
0010101100000000111101110000100111101011111110000000000000000100
1101111111001111111100101110001000010001111100011111011111001001
1101001111111000000001001111100100001000000010111100011011111101
0001001100100110111110100000101000001000000110000001110100100001
0000110111111000111111001110001011110110000111110000101011110111
1111101111101000111100001111010000001111111110000001010000010100
1111100111111100001000000000111100001110000000100000001011111001
1110000000100001001011100100101111111011111010101111110011111001
0000110100101101010001100010000000001100111101101111001111111101
1111101111110100000100000000100011101011111011011110111011100010
1111000011110100111110011110101100001110000100010000100011111100
0000001111101011000010000000010011111101111101001111011000000000
0001000000000000111101111111100000000011000110011111110000000011
0001010111111001000001100011011100010110110101000000000111111110
1111011000001111000010011111100100000000111100110001100100101010
1110100000011110001000001111100000001110000000111110110100000110
0000101100010100000001110000111000001010111000000000101100000100
1111110111101110000001010000110100010111000000111111110100010000
0001100111111000111010101110111000000000111100010000000100001111
0000001100001001000001010011101100101000000100110000011000001010
1111001111111101111011010000111100010000000000001111111111110100
1101100011100110000111010000000011011000000000110000010000010011
0000010111110101000100001111110011101011111001101111100011110110
1110010011111010000010010000101011110100000000110000010111110001
0000010111101111000000111111101111110010111010110001001100001011
0000000011101011111001001111001000010010000101110001000100000101
0000101000010100001011100000011111100001111010011101100011110100
1111100111100110110101011101010111110110111110001111001100000111
0000011111111100000100100000010100000011111111010010000100000000
1111101011111101111000111110010011111001111100001111000100000111
0000000100000101111101011110111011111100000000000000000011111010
0000000000000011111111000000110011100001110011011110110000100000
0001101011110110000000010000011100001111000001101110100000001101
1111101011101000111111101111101100001110111000000001110000010111
1110011011110101000110000001011000110110000001011111000011111111
1110010011110010111111010001000000001000000011011111100011111011
0000111011110110000110111111001111110001111111000000000000000000
0000100100001011000011100000101100001010000110100010100100110010
1111011100000111111111001101101111101001000000000010011010111001
1111000011111111111000111101000011110111000011111111111011111100
0001011111101000111110001111100100011111111111101111011011111001
0000111100001100111101001111011111101001000000010001011000000110
0001001111111010000111000001010100010001111111010010011100011010
1110011111011011111010101111110000000011000010010000000011101110
0000101000000000000011101111111000001010111111011110011000000000
1101011100000101000101010000111100010101111110001010110011001110
0000000000100011000001111111011010110001110000010001011000001100
0010000100011111111001001011111011110101111110100011000000001010
1110101000010010000010101111010000011000111011100000011100000101
0000010000001110111111111110100000001010000001011110110100010000
1111110000101001000011001111111011110100000000001110001011001111
0010101100110111111100011111010000000101000000001011111100011000
1101101011111111000001101110111000010001000110101111110100001001
0000110100000111000010001111100000010100001000111111001100001011
0000000111101011000011011111011100000000000000000000100100010111
1110100100100010000100000000000000000011000001011111111111111011
0000011100011000000101110000111011110110000110100000001000000011
1110111011110011111110011010011100010100111001111010110010111111
1110001011111001001001110000010100000000111101000000100000110011
0011110100011111000100011111000000000111000010010000000011111101
1110100100010100000001000001010100000001111011110000000111110000
1110101111111110111111000001000000011010000011000000101100000010
0000001011001111110100011101011111110101000000100000010000011011
1110101111110110111011110001001011110001000011001111110000011001
0010011100001000000000000000000011101111000010011111101111011001
1110100100000000000001100000101011111110111010001100011011010101
0000010000000101111111011111111000010101111100101111110100001010
1111001000010000111101110000001011011010000000101111101100001010
1110110011111000000010010000011011110000000101100000100111101100
0001000111110011111001010000000000011110000100100001000100001011
1101100100000000000110111110110111111000000101011111100101101010
0001000011100001111011110001001100001101000100011110101011011001
1111000011011111000000011111001111110000111111101110110000000010
0001100000001001000000000000000000000100111011000001000000001000
0000000111110100000100010001111111111011111001111100110011101100
0001011000011111000000001111001011100011111110000000010111111111
1111001011011111111011000000011001001111001011000000101111110010
1101100011011110111100100000110000100100111100010000101000010011
0001001000010010000101011110000111111100000101100000011000001000
0001011000001100111001111111000000000000110110110000001100000000
0000110100001101110111111110111010101001101011110010011000000111
1101111100001101000001101111001011001100111110010000100011101010
1110010000010101000010111101010100000101111110110000011011111000
1111000111101100110110101111101000001010111110100000011000001011
1111010011110101000000000001010000001000111100001111001011110111
1111000100000001000100001110111000010000000010000000011000011110
0001010000011111111011001111011111101110110011101110010000001111
0000010111111001000000110000000100000000111000111110001111100010
1101111111110101000011010010001100100001111011100000011000011011
1111011111111100000111100000011011101010001011010000000000000110
0001011011110000111001110001010000101011000001001111111000001100
1110111111110111000001110000010011111100000000000001000111110100
1101111011111011111010001111011111110101000010000000101000101000
0010011000011010000111101110110000001001111100110000011000010110
1111101011110100111110110001010100000000110101011111100111110110
0000101100010110000000000001000011101011111000010001110000011000
1111000100100011000010000000000011111100000000101111010111101010
1110101111111101000000100001000111110101000010010000001100010101
0000110111101011111001101111111000010111000010100001011000000000
1111001000000000000101000000000011111000001010000010010111110110
0000110100001101000100100001001111111000111001111111100100000101
0001010011110011000000011101000011011100111110001101100011011011
1110000111110111111011101110101011101010110100001101110011100011
1111010000000101111110111111101000010011111110101111100011111110
1111011111101111110111100000100100010100000000001111001011100110
1110110110110111010011110100000000100011111111001101111011001010
1110100011100011000010110000001011101111000001101110101100010001
1110010111100010110101101111100000000011000110010001101011011101
0000000000000000000010000000001000011110001100010010011000001110
0000111011101111110111011111100000001100111110101111011100001000
1110111011110000111110100001111000000000000010001111111111110000
0000000100101101001101010011010100001010111010010001011000101001
0011110000100110001000010000110000010011111110110000001000010010
1101101111001110111010101111111111111101000010100000000000000000
1111010100001110000000111110110100001010111010110000100000000000
1110101100001001000000110001001000000011000010100000011000001101
1111000011101111000100100000111011111110111100001110101111111100
0000010011111001111011110000011100010010111110000000100100010000
1111000000001011111101011110101111111110000001101111000000000101
1101011111110000111111001101111111100110000001101111001000011110
0100011111110011000000001111001111111101000001000000000000100101
0000111011110111001011011111000111111101000001111111100000001000
0000111011110011000010010000000011011010111001100000000000001100
1110111111110000110110111101111011111001001000100100010100000111
1111011011111100001010100100110111100001000000100000000000000001
0001111100100001000011100010101100000000110111000000101100000101
0001011100100011001100100000000011101100111010101110110000000010
0001110011101111000100100001110000010111111110101110110011101100
1110100100000100111110100000010111101011111111010000000000001110
1111111100001011000001011111110011100111111111000001100100011101
0010111000000111111110100100100000001101111011011110000000010000
1110100111111001111101110000110000011100000100100000001100010001
1110000100000000000000000000001100001001000111000000001111110111
1111010100011011000101000010011000010011111011011111100011111110
0000101111100110111110010000101000000111111011111110000000010001
1111101111110001000111010000001100000000000011101111101100001101
0000010000111110000001100000001111110101111100111110100111111111
1111100000010010111010001111011111100110000000001110000000011000
0000110000000000000011000010010100000101000111000001011011111110
1101101111001010111000110010011000010011111110001110110011111010
1111110011111111000010111110110011110101111100100001001101001111
0100110101000000000101100000000000010010000000001111001000001100
0010000000000011111100110001000111110100110100011101101111101001
0000101100110111111001101111010111100101000111101101011011100110
0011000011110001000110010001111000001000111110110000000000011101
0000100100011001000101100001010100011101000001100000011111110100
0001000011111010000010000000111000011100000100001110111011111000
0001010100001011000100011111100011111000111110000000000011011111
1101110011100001111001001110000000010111111011110001001100000110
0011011111111100111111001111000011110100000101000010000011111011
1111001111111001000001011111111100011010000001000001111100010010
0000010111111101111010101110100000100111000100100001011000011000
1111110111111110111101101110000111110111000000011111100000010110
1110111111100110000000001110100011110111111111011111010111101110
0000100100000000000000001101111111101010111011110000000000010011
1111000111110000110010010001000000010001111100011110010000001000
0001111011110101000100000000011100000000111111000011010100100111
0010101000011101111101100010001000001100111101011111010100000000
0000011000000101000000111111101100001011000000101111001011111010
0000011100000000111100011101101011111000000011111111100011110011
1111111111010010110010001110110100011010000110110000000000101100
1010100111101010000011110000100111101100000000000010111111100101
1111100111110000111001001111010100001111000111000001010000000001
1111010100010010000111110000100100001010000001000000101000001010
0001110000001000000010110000001011111001000001100000101000010011
1111001000000100111111101110000011110011111000111110011100011001
1110011111101000111100001011111111101100111001110000001011111110
0001000100101100000110001110100000001011000110000000110011110100
0000100100110001000011011111110000001110111111001111111011110100
0000000000010101111111011111001111111110111001010000000000000100
0001111000110001000111011111100000001110000100010001010100000111
1111100011101110111111001111011100010110111110101111110111100001
1111010011101000000100010001011011110100110000011001010000000010
0001010000001001000000000000101011011101110011111111000011101101
0000000000010100111001111111000100001110000000000001000011111011
0000010111110001111100110000100100000111000000001101111000001011
0000000011100111111001100000010111101010000000000001010100001000
0000010100000000000010100000010011110101111011010001000011111100
1110100000001111000011001110111011100000111110110001101100100101
0000110011110111111111100001101101011000000000001110011111110111
1110111011011100110100100001100111110011110110011101101111110100
1111011011110100000101000000000000001110000001110000011000000000
1110110111111000111101100000011000001011111100001110101011110001
0001011000010001000011010000100100000001000011000001001011110001
0001010100000000111111110000100111101011111000100001001111011111
1111010111100100111001001101111111111111000100111110001011100011
1110100100010100000100010000011000011010111011110000110100010010
1111100100001100000101110000100000101010001011010000101111101011
0000010111100001110110011110101000000011000011100000111100000001
1111000000011011111101110001110011111111111111001101100011101010
0001010000111101001001101111010011101000111001010000000000101100
0100011100100100000011001111011000010011000100000010001100100101
0000010111100101000011110000011100101110001101000000111011110000
1110011011101111111110100001101000000110111001101100110000000111
1110101111111101111110001110111111010111111001011111001000001001
0000100011101010000100000000111000000011111100111110101111111000
0001111100111000000101001111110111101111000100001110111000010000
0000001100010000111100000000000011110101000011011110011111010111
0011111011101100000101000000010100000000111001011110101111101100
1101011011110011000100011110001000010000110110110000111000011010
0001110000000101000001111111101111111110111111010011001000000000
