0000010000010110110110111111111111111010111000010001001000001011
1110000000000010000100100001101000100010111011000000111000000001
1111110111110011000011001111111000000000000001000000000011100111
1110011100011011111100010000100100011010111100111110111000000000
1111000111101111000000010000000000000000111011010010001100001011
0000010011111010000110000001001000100001001011101111010111100010
1111110011111001111100110001011000100010111101000001101000000000
0010100111100010111101100000011111011101110100011111110000010010
0000101000011000111000001110111100100101000101011111100100010101
0000101100001101000000001111100111101011110111000001011111111110
1111000100010000001001110000000111110001000011111111000100011000
0000001011110001110110000010001111110100000011010000001111110111
0001101000000010000101010000000000000001111000000000000111110011
1111001000000010111101001111110011011110000011010000000011100000
1111010100001100111001111111001111101110000110001111100000010110
0001100111111101000100011110101000001011000110000001101111111001
1111101100101100111011101111111000010110111110111110100100010011
0000010111110011000100010010000000010101111101101111010000001110
0000010111110100000100100000111000000000111110111110000100101000
0000100100000111111110101110011111111000000001000001000100110000
1111010011110111000001101111100100001010000000100001011100001000
0000110111110010110111000010100111111000000001111111100000001100
0000000011110101000001100010011111111011111111000000101111101011
0001000011111010000011010001010000000111000010111111101000000111
0001001011101110001001100000001111110010000010100010101111011101
1110011100011001111101111111010000001000000101010000001111110110
0001010111011111111110001110010000101100000110000100010111010111
1111110011001100111111001100001111110100000011001011100000101001
1111111000000011000000110000001100010011000001101111011000000000
1111011011010111110010110010010000011000111011110000100111000110
1110111111111010111010001111100000010110110001011111010000111001
1110001100101001111100111111011011111100000000000011010100001110
1111100111111000110001111110110000100000111110111101010111100101
0000000000000110000000000001000011101111110110001110110100001001
0001000000011001000110011111011111110110000111011110000100010011
0001011100000101000011011110101100001101000000110000000000110100
1111000000100010110111111111010000101000000010000010001011110000
0000110111011101110000100000001100001111000001111111100000001000
0001010111101110111001100001111100000000111111011111001111010100
0010111000010001001110010010101100001001001000100000100111100010
0010001011011111000011000001000011101100111001110010000000000110
0000000011110101000011001110011111101010000001011111100011101000
0010110111110011000001101111000100010110000101000100110111111001
1111110011110100111111001111001000000010111101101111011000010100
1111100011010110111101101111010111101000111111101101110011111101
0000000011110110111000101111101000100011001001100011001111010010
1111010100010111111001111110101100001011111101100010000111111010
1110110111100110110110011111101100000010111001110000101100010010
0011001011010010000111111111110111110111001011101101000100010000
1101011100000010000011101101001000001100111010100000111011010001
0010001100010101000000001111110111100110000001010001100100111011
0010000011100111000010000000001011110110000011110000111100000000
0001101011101111000001000001110011110000101110101101100011100001
0000111011100010000110101110100011110010111110111111110100000000
0000000100001111110110001111000000000000000111010000111000011010
0010011011110100110101010000100101000010111011001111110000000000
0000000000011010110101001111000100000001111100011110111111111000
1110111000010011111101000000110000111011111111101110110100011011
1110101000000001110111111111010100000000000000111100010100100110
0000001111111000000001100000010100010101111110101111001011100010
0000011011110001000010101110110100011101000011010000010100010100
0000110000001010110111001111101100010000000000001110101011111100
0000110111110000000100110001111000011011000111001110101111001110
0001100011111110110111011110110111100110111010101101111000001110
1101100000111000000000100000001100001110111000001111001000011001
0001111111111111001001010000011011100100111110100000010111110000
0000011000000101000001000000011000000100111011111110001000010000
1111001000001111111101111110101111111101001011110010110100100111
0001011000011011000000111110101000000101111010100010000111111010
0000010000111110000001101111001111100100111010000010100100001110
0000001000001110000110110001000011100100001110101110011011111010
1111101100010000000100101111001100000111001011001111001100100000
1111110111111011000100010000111000000010111101100011010111110101
0000011111110000000000110000101000000110000000111111101100011100
1110111111100110111011001111110011111011000011000001000011111110
1100011100001111111011111111011000000000111100101111001000011001
0000000000010100000001101111011000000100000100011111101011111000
1111011100011001000100101111101011101111000011111110000000011011
0000010100000110000011001111111000000000000001101111000100010110
1110110111111101111101110000000111100000111111011101111111110010
1111011000010010000101001111111100000001111110111110111011110100
0000011000001001001101011101110000010010000000010000101111110111
1110000011100010000001101110101100001100000100011110111000001110
0000111100000000111011110010111011100111000111011111010011100110
1110110000010001000000101111101111010000000101010000111011110111
1111100100100011000110110000000011011000111111010000111000000000
1111011100000101000010111111011100000000111011101110100000001110
1111101111101111111100000000100011110010000101111110110011110111
0001100100000110000100110000011100011111000000100000010011110101
0000000000000000000001010000001000000011110101000001000100000101
1111001011100110000100110000100011111111111110010011110111100111
1101111000001010000011011110111100000000111011100000110011010110
0000000011010011111100100000100011100010111101111100111111111000
0000110100000010000100000000100111101110000111000000000011101000
1110111100001100110111011111000100000110000011011111001000101100
0001110111101111000010001111110111111101000001010001100000010110
0010110111011100000001000001001111110100000100010010010011101101
1110010000001000111101110000010000011010001001100000011011111101
1111001000010001110110111111010000011111000000110011010011011111
0000101000000000000111010000010000111000110100101101110100110010
0000001011110001000000000000011000001000000101001110101000000111
1111110111100010000010000001101000110010000100100000000000000000
0000100011101110000100111111110100011111111001011111100011111101
1111010000010110110110100000100111101111111011101111100011011110
0000010011110010000110011111101100010000111111111110101000100010
1111110100000011001001111111100100000000111101001110111000001111
0001010111111111000001000000110100010101000001000000110111011111
1111110100100110111011011111101100000000000011000000111011110000
0000111011100000000010101111010111111001000000000000000011101101
0000000011111011000101010001010011110001000010100011000011100110
0000001011110000111010010001010000010011111101010000011111111111
0010100011110011111100010001000000001001110101101110111100101101
0010100100000111001000000001000011101011000100100011001011110000
0000110100010000000100001101110011111110000011000000101100001101
1110011011111101111110001110101111110100000100010011000111110010
1111000100011001000011011101110100001110111000001110110000010011
1111000011011001111100100000001011010001000111101101110111110101
1110111011101111000001000010001000000110000000000001000111100101
0000010100011000000010011110011000001001101111111110110000110010
1110101100100101111111111110111111111011000011010000100000001111
0000010111100001111100110000001100000000000100110000100011110011
1111001100001000111011100000011100000011111011100000111000001001
1110001111110001000001011110100011111111111100000010110111110000
1110111011110101000001011110000111011010000011001110010100000000
0001011100000100000010001110111100000001000001101101110100001100
1111010111111001000100010000101111110100111110001110100011010111
1111000111110010000011101110010011110011111110100001011000101100
1111110000010011000001101111111000001001111010010010111000001001
0011001111111010000100111111100000101001000010011110001000010111
1110110011111101000100111110101000101100111110110000100000000010
0000100000001110111100001111001011101101000011110100011100010000
1111111000001011000101011111010111010101000101100001101011100010
0000111011011001111101100001001000000110111011101101101111101100
1111101111110110000110101111000111101111111110000000111111101101
1111111100010001111010000000101100000000000010110010000000010010
0001101011110001111110010000010000100111111100001111000111111110
0000110100001111111111101110110111110101111111011110001100000110
1101111111111000000110001110101000000111000100000000010011111111
1111111011111000000011110000110011111000111110111111001000000100
1111100011010100111000010010101000001111000101001110111011100111
0000100011100000000001110001111111100111111010001110000111110001
1111110000000100000000000001000011011011000010001111001111010101
1111001000001101110010101111010100101000000100111110110000000111
1111110000001001111000010000001100001010000100010000100000000000
1111001100010011111010000000101000011010111100010000101100001101
0001110100000001000100110000111011101101000000001110111011111101
1110011000000110000111100001001111110011000001101110001100000000
1111010011011111111011110001110111101111111111011111001011101110
1111010100010010111101110000101011101100111101100001000000000000
0000101100010100000000111101010011110111000001110001000100101111
1111101011101110000101001110110011111110000011110000100000011010
0000000011101001000011000000000000000101000100000000110111101110
1111101011110001111100011110111111111110000000001110001011110100
0000111000001101111010101110101100001000000000001111001011111100
1110110000000000111100001111110011111100111100100000100100001001
0000111111111001111111010000100111101011111100110000001011100101
1111110100001011000011101111011111100110111110101111011100000000
1111100000001111111111101111101011101100000011110000000100000000
1111111100000100000011101111001100000010111111001110110011101110
0000110111101001000010001111110000001011000100000000010011101111
0000000011011101111011010001010100010000000001010001001000000100
0000101011111110110101110000101011110010110111010001001011110011
0000001000010010000011000000010011110100111110110000000000100000
0000011100001110000111001110101111110011111001110001000111111011
0001100100011011111111100000110111011011000010011110010011111100
0010000111001100000011110000110000011000000010011111100000001011
1111110000001110000000110001010000011111111111000000010011110110
0001100011101000000001101111100100010101000010000000010100001000
0000011011010101111111101111110011101101000110001110011100101000
1111001111111011000000000000010011011010111100000000100011111011
0001010000010011001011000001011000000101000000111101101111100111
0100011111111000110111111101010000000000000001010001100100100100
0000111000011011111101111111101000101001110010001111101000000000
0010000111100001111010000011100011101101111111010010001011111100
0001110011111010110101100000100111110111111100010000111111011110
0010011000010001001001110010001100101101000101110000110011101010
0000000000000001000000111111010100000100111010001110100100001010
0001010111101111001100111110111011110011000000001111010111111000
1110001100010110000000000001011111111010111100101101111100000000
0000000011011010110111010011000011101000000011001110110100001110
1111001100101101000100011110110000010110111000110011101111111110
0000110111100011111100111111101011101100111110110000101011101111
0000110011110010111010000001011111101000000011011101111111111010
1110111100011010000011000000101111010111001000101111110000001111
1111101100001001000001011111001111111000000000100000001111111111
0001101111111001000111111111100100000011000010111111100000100001
1111110111111010000001011111110000000101000000000000000000000010
1110110000001101000100010000001000000001111011001111001100010100
1111101000011011000011010001001100101101000100000001101011110000
0000000111111101000000000000011100011111111101110000001100000101
0001001000001010111111000000101011110001111000111111000100010010
0000011100010110000001001110110011011011000100100000111000010010
1110101100001001111100100000001100000010111110011111101011111011
1110110111110110111100111111010100100000001011111110001111111010
1111010111101000111000100000000000001111000000011101111011111000
0000000011111010110111101110111000001110001010111110011000001111
0000010011011011000011010000000000100110111011010000000011101001
0000110100000000111000101111110111110100111100011111010100101001
0001001000000110111000010000100100000110111101111111011111111001
1111010100001000000001010000000111111000000101000000000011110011
0001111011110100000100100000111111110111000010011110000100101100
1110100011110111000011001111011111011110000001101111001011110111
1111110000000000000000110000110100001011111100110001111111110110
0000111111101011111110010010001011011100000011101111001011001011
1111010100000000000010011111100111110110111001011010111100000100
0000100111111010000111111101011011111011110110001111101100010011
0000110011111100000000001111000111101011000000000001000000011110
1111110011111010000100101110111100011010000010100001110011011110
0001010100011010111111000000110100001010111010000001111111101011
1111110011111011110111010001100000001011000000001111110100010001
1110100111111111000000000000010000000100111111000000111100011101
1110100000010100110110011110111111011010000000000000011011100111
1111101011110111000111101110101010110101000000101111100111101001
1111000100011000000111000010101011111101000010001100111100010111
1110101000100011000000000000100011111000111101111111100100100001
1110011111111000000111011110111100000101000000010001010000011011
0000000011101101111111001111101100000100111110100010000111100101
0000111111110001000110101110110100001011111100101110101000011010
1111000111101000111011100001001100010100111011111111101111111100
1110001100000010111110001111100000000011000010111110001100011100
1110100011101100000000111111101000000111000110010001100011111101
1111000100001111111011111111000100001010000111100000001011111101
0000100000010010111111010000101000010101111110101111101111111111
1110100111110010111111110000011111101110000101011111100000011001
1110110100010010001001010000010111111010111111110000000000011110
1111010100000101000111100000101111100000000001111111010000001001
0011110000000010000011110000101100001000000100001111111011011101
1110101100011001000000000000100111101010000111000010101100001101
1110110000000011111100010001010000010010000000110000111011111010
0001010111110100111001010000010000000011000100110011000111110001
0001000000000000110111110000001000000011111101110000111111110010
0010100111110110111011000000110100000111111100101101011000000010
0000100000001001111011001111000100000010111110000000011011111100
1110001100000001001001011111000000000111000001011111010000010000
0000001100001110000110100000001100011101000010011111001011101100
1111110111111010110110100000111000000111000101001110000011111101
1110111100000000000100100000110111110110111100111111011100000111
1111100100000001000011001111111100000000001001100001110011011000
0001000011111100111111110000111000100011111010101101110100001101
0000101111101100111011010000111011010011000000100000111100011100
0000100111111111000010111111111011110110111101110000110000001110
0000110000000100111100100000001100000111000000000000110011111110
0000000100000111110110110000010111111011000010000010011111111011
1110111000000010111011110000101100000000000000101110011111100100
1111110100001100111111110000110011111110000011011111110000010000
1110111011111010001001101110011000001110111001100000011000000011
0000111000001111111100111110100100000101111010010001001111110111
0000010000000000111110010000000100010000000000001111000111011011
0000101100001011111110011111001111110000111100100000000000010000
1110100100000000000101010000010000100000111101100000010111111101
1110000100000001000010101111101100001100111111110000011000010001
1110101000011000111110010011011100101001000000001111101011111001
0000110011110000000010100001001011110001000011000000110011110010
1111101100000111111101010000101111110111000011010000100011000100
0000010000010100000000100001001100001100111011011111010011110000
0001101111111000101110010001000011011010111011001101110100100010
1110010100000111000100000000111000000001111100100001100000000010
0000111111111000101100010001000111001101000011001111011000001101
0001001100001111110100011111111000010010111111101111000100010000
1110000100000001000101011111001111101100110111011110101111100011
0000010111100011000000000000111011110000111100101111010111111111
1111100011110011111101010000001100001100110100101101000100100011
1110111000000110001011100000100111110110111101011111000111110010
1111011011100001111101011111111000010100000100010001011111101101
0000010000001100000010010000110100000110000001110001000111110110
1111110011110010000110001110111011111010000001110000110111110110
0001000011110000000000101111011011101111000010100000000011111000
1111010111110010000011100000000011110001000100101111111000001101
1111011000001001000010110000110100000000111001110000001100000000
0000011000010000111001000000010100000011111111100001001000000011
0000000011111011000011001111101111100101000000101111111100010011
1110001011111010000110100000101011111010000011111111010100111100
1110000000100111000001010000001000010101111001010000110111110100
0000001011110000110111100001100100001111000000000000111100011010
1110110000000110110100001110111111110010111100011110001011111101
0000001111101010000000110001001100000100000010100000011000000010
1110111111100001000101101111011100011000000011001111100000000000
1111101000100000000001010001011011101111111001101011111000101001
1111000100010000000010110000100111111010000010111110010000010011
1101110011110110000010001111010100000111111011100001111100000000
1110000000100010111001010000011011100110111001111110110111111010
1111111111111111000110000001001111110010000000101111011111111101
0001111000000111000011010000010011100111000100001111001100001111
0001110011110010000000110000110100011010000100010000010000001000
1111001011111000111111001110111000100010000000010001101111110010
1111000100011001111110010001010100000100001001010001001011101111
0000100000000001000010000000111011111101001001001111011111010000
0010001100010010110111100000000111100110000001111101111011110011
0001110111011100000111100000100100000001000100001110000000101000
1111011111101111000010111101110000010010000000111111001100000100
1111100000001011000110000000011011111100111101110000000011110101
0001110000010000000000110001110011101110000001010001011011101101
1111111011110111111110000001010011110000111010111111001000000000
1111100100001101000100000001100011100010111111010000000011100110
0000010111101011110111000000100000010100000000100000000111111000
0000110111111010111111000000100100001001000000111110100011110000
0000001100001000000001111111000111110100111110110001100111011100
0001101111111111000111001110110111110011111010011110110000001001
1110110011101101111000001111110011110011000000000000100000001111
1110111000000101000111011110101011100100111011101111110100111001
1111100000101111000011000000100111100111000101100000001111110001
0000000100001000111101101101111100000111111011010000100100001001
1110110100010010000000001110010011100000111101111110001100001011
1101110000000011111100010000001111100011000110100001000100100001
0010111011111001000010101111000111111111000010111110111000000110
1111011100010100110110100000011100011101000110000000010011110010
0000010000011101111000011111100011111111111100100001001011101101
0000011111101000111111011110101000000000110110101111100100010000
0000011100000111111010110000000100011110000100010000010011111011
0010011111010010110001100001011100011110000001111101110111101010
0001110011101100000000010001011100100011111010010000110100001001
0001011100011001111101110001010000000101111001000000101111101100
0001001111101111111010000000100111111000000100110010111111100010
1111011011110111000000000001001100000000000001101111011111110111
0000111100010100110010101111001100011010111101010001011000011100
1101111100001000001011111111100100101000110100110001011100110000
1111111100000110111111000000000000010010000101000010101000000111
1110100100000001000000111110010100100011111111011111101100010011
1111010111111011001000001111110111101010111101011111111011100111
1111000000000011110111011111110011011101111100110000000000010111
1110111100010110110101010000010111111000111101110011000011101010
1111100011110100110101000011110111100110111010101110110100000000
0000011100001000111000010000110100001101111011100000000000000011
1110110000000000001010000000000100011001111010010001011111100110
0000101100000100000000010000111111101001001110010001001000001101
1111010000000010000101001101000100011001001011011110110000110100
0001000000110010001000000001100100001111000010110000100011011110
1111000111010110111010101111010011101000110001101110011100011000
1111001100010000111001110000000100100110000010111111100000000000
0001111011111001000001001110101011011011111010010001010000001110
1111110011101100000100110000000000000110111110111101001100010111
0001101100000000000011110000001111011100000011001111100000010100
0000010100001111111101111111101000010100111011010001000111101011
1111110000100011111101001110001111011011111101110000010111111000
0000100111101010111111001111111011101110000101011110110100010100
0000010100000111000110001110110000001011001010011111011100010010
1110110000000110111000100000001000011000000001111101100000001011
0000111000000000111011110001010100000001111001001110100111100001
1111000000000010000011001111011011011000000000101110100100011101
0001110011100010111010011111110111111000001010110010011100000011
0000011000000011111101110000100100111000111101000010010011100000
1110110100011100111001111111011111010100000101111101100111100111
0000011111110010111010000001101100010101000000000000010100000000
0000100100000011000101111111000111111011000011100001011000000100
0000101000011011110101001111000011100001111101010010100111100111
1111011000001011110100100011001011111101000000000000000000001110
0001001111110010000000000000011100001111111100011110000111011110
1110111000100000111101001101101100101011111001111111001011111010
1111010000001001111110100000000111010010000011011111011000000010
1111000011101000001011110001001100010000000011111110110000000110
1110110111111001001011001111010100101100000111100001000011101001
1110110011110010000001100000000011100111111011111111101000001010
1111100011011101110110101110111011101101111111111101110100101010
0000000011111011000000000000011111101100111001001111110011011110
0010000100001111000001111111011111110101111101101110011000100100
0001001111100111110111010001000011011111000101100000101100001001
0000011100011010111100011111110100110000111100110000010111110110
0010000111101000111011110000100111100001111000011110111011110100
0000101011111100111101010000000011111101000001110000010100011010
0001011100010011001000011111111100001110001000100000111000001100
0000010100011110111010111111100000000000111001010000011011111110
1110101111111111111001010000110100001011000011110000010011111001
1110000000000101000001001111000100010010000010111111100000010011
1111001000010011000010111111101011101100111101001111111111101111
1110111011010000111110100000010000000000110111111111110100000111
1110111111111101000001010001000100000010111100001100010111101011
1111110000011010001000010001010000001001111011000001000000001101
1110101011110000000010111111001011110000000000000001010111011110
1111100000010111111111010001001000000110111010100000001100001010
0001010011111011001000000000010111111011000010111111100111110010
1101100011100010111011100000000100010110111111011111010111101010
0000001000001000111011100001001111111101111110110000110000001110
0001000011110111000011100000100100100011111100110000011100001001
1111101100101000000000001111011111101100111101000000001111110001
1111011100001000000000011111010011111101111100011110101100000000
1110111111110100111111011111111011100000000000101111011100001101
1111111100011101000110111111110011111100000001011110111000001101
1111010100000001001011101101001111111001000011101110110000011000
1111111100000000111100111111001100000000111111101110101111111000
0001001111101110110010000001001100001010000100011111010011111110
0000011111101110000001101111001111111011000010100000000011110000
1111110000001111111101100000110111111111000011000001101011101000
1110101111101111111010011110110000001100000010001111110000010001
0001000100000010111111101110110100000100000011100000001000000100
0001110011100011001001110000000011110100000000111110000101000101
1110101011110010111011000000101000111000001000100000110011101011
0000111000001001000110010000110111100010111011100000011100011100
0001001011101101000011011111111011001010111111100011001100011010
0000110000101011111010010000101111111000111110001101111000001111
0000100111100010001011010000111111101110000011010001010000010101
0001000111101010111111000000001000100110111000010101010111110011
0011000000001101000100000010110101001100111100011100110011101000
1110000101000110111110011111001011101101111101110010011011111000
0000111100010001110101110010110000000000000000001111100000001100
0001000100010101111000010001001011111001111110101101001011111101
1111011011111011000000001111011111111010111010111110111100011110
1111100011100100000000101111111111100000111001110001100000000001
1111010100000100000011110011100000000100000011001101010100010110
0000111100001011000010100000011011101100110110011110000111100000
1110001100011011000000011110101011111101000010100001111100001001
1111010000011000111111000000001011111011000001100000101111110100
1101011011101101101000100001110000010101111111010000010000010100
0000101000001000111111110000010000001011000010001110101000010101
0000000100010100111101101101111100010111111011110000000000000101
0000000011111010000001001111111100001011111111101111000000000000
1111110000000000000001110000101000010001111100001101101011110010
1111111000011010000100100001100100011001000010110000000011101111
1111101111101110001000001111010111110011000000000001101111101110
0010011111011000111110010001011000001000000110100001011011010010
0000110011101111111110011110010111000111111100010000101011100010
0001101111110111000100101111011100000000000000110100100000111000
1111110100001011000110101011100011110100111001011110110011101100
1111100011110001111011011110001111101011111100001101010100000100
0001011011001010111010011111001000100001111010110000000011100110
0001000000011101000000000000111011101011111110010001011100011000
1111010111101100000001101110110000101001110111110001111100000010
1111111111110011111011100001001100000110000011110000000000001011
1110101100010101000111100001001000011100111101110000001100000011
1111000000000100000000110000001011110100000100110000000011110110
0000011100000110000101010010000100100110111100010000100000001101
1111110111101111111111101111001111111110111110010000000111110011
1110001100011110000001001110110000001010000101111111011111100100
1111101111110100111011010000011100010011000010110000000011110101
1111010000010100111001111111100111011110111001111101101000011001
1111001111011001001000000000100011011100000010111111011100010111
0000000000000111001000101111101100010000000001111110101100000011
0000000000000100111100010000011111110111111111011111110000001101
1111000100001101111110010000111011101000111101010001000100000100
1111110111110110111100100000010111110011000100001111000111110011
0000100100001000111111011111000011101110111011010001111011100100
0000000111110010111100101111001111111001111101100000011000000011
1110100011111110111111010000011000000001111101111110001100101110
1101110111111011111111010000101000001010111001100001101111010101
1111001000000011001001010001001100001000111100111111101100000100
1111101100010111111001110001101011101110000011011011100011100010
1110101100000110000100110000110100100010111011110001111000000000
1111010111111110110111100001010011111101001010000010111100011000
0001000000000000000001100000000000010110000011111111001000000111
0000000000001110001101010000011011111001000000011101001011011001
1110011011101101110110000000111011011110000001011111101100101110
0000000000010000000011000000001011100000000001101101111000000100
1110001100000101001010101111001100001000000001110001001100001101
1111110111111110000111001111011000011100000000000000010011100010
0010001000010111110011010010100100101000000010101110101100001000
1111010100001100000100110000101111110001000000010001101000000000
1110010100001010000010110000110000010001111011100000001011001100
0000110111110111111111011111111000010001000001111110100111110000
1111111000010110111001101111100011101111111111000001011111111000
0001010111011011001001011110110111111000000100101110101000000110
1111100111110101000100111110101111111111000100011111001011110000
0000001111101010000100100000000011101101111100110000110011001011
0000110100010000111110101111110111111100111111101111100011001111
0000010111110001000010111111001011100110111110111110111100000000
1110110111111110000101010000000011100100000011000010110011111001
1111100111111001111111011111010000011100111000010001000100001000
0010000000001010111101101111000100000101000000111111100100001111
1101110000101100111111101111110111111000111100011101010011101011
1111011100001111111110010000010100000101111010101110101100000010
0000001100011010000111000001100111101110000101011110010100000000
0001100100001111111111101110110111100111000111010001101000011111
1110111111111111111111111111001000111010111001110001100011111001
0001100000000111110100000000000100011011111101111111101000110010
0000001100001011000010000011000111111100111000110000010011100111
0001101111100100000001000001001000010110000011010000100011101001
1111000111010001000101100001001111111110000011111110100000001111
0000011100000000111011011111101000000011111100100000100011100101
0001100111101101000101010000011000010000000101000000110111111001
0000010100011011000100100000001100000110111111110000100100100111
1110110100001100111011011111011000101011000001111110111000000110
0001010011100111000010111110001000000001111110101111110100010110
1111000011100101000000001111001100100100110111110001100000001000
0000101111110101111101011111000100000011000000001111010011011010
1111010011110111000101010000011011110000111100010011010111111111
0000111100000111000110100000011111101011111011100000000111110100
0010001111101101110010100000111000010011000100111110111000001100
1100101011111001000111111111110011100100111110000000100000010000
1111111100101010000000000000011011111101111111100001101111111100
1111011000001010000000000000000000011100000110010010000100000000
0001000000010011000110101101111011001011111011011111100100001101
1100111000100000000001100000111100001011000010011110010001001100
0010010111001100111001110000001000001000000010100000110000000101
1110101100001010111011011111010100010011000000010000000011110011
1111101111111100000001010000101011101011111111000011011000000111
0000001100001000000010011100001011101110111010011111010100010011
0000001111111101111111101110001100001110111110101101010000001100
1111111011001011000000110001110100101001000010001101000111110110
1111101011111000111100100000100100101111111010000000101000010011
1111010000000010000100000000100100001000111010000011110111011101
1111011100000010111011111111110111111010111110000000010011100010
0001001000000110001011101111100000000000111000111111000111111101
0000111011111010000001000000100000100000000000001111110111111101
1111010011110111000000000000111000100001000001001111110100000000
1111100100000111000010111111111000001000111101010001101100000100
1110011100001100111101111110101100100101000011000000110111111100
1110111111101101000011001111011000001110111111101111001111110000
0000000011101110111010110000010111100000000001111111101111110110
0010001011000000001010100000100100000100000100000001110000001000
1111011100000110111110011111110100001001001011100000001000000000
0000111111110100110110000000111100001001000010000011001011100111
1110111111010011000011001100011000000000110111111110000100100001
1111100100110010111111000000111100100011000110110000010000100011
0010010010111101111011110010000000010110000000010000101111011010
0000000011011111000001100000100100000000110110011111101000010001
1111000000011010111100100000110111101100111110010010001100001101
1110001100001101110110010000011111100010111011111111010100000000
0000101111110001000011010011010011111000111011010000000100000000
0001000000100000000111000001011111101111000101111110101011111000
0000111111110011110011010001000100101101000101010001000000000111
1111101000001100111110100000100000100100000010100010001111111011
0000110011110100111111011111000111110000000100000001100011101001
0000110100001110111110000010001100011001001000110000110011010111
0010010011111001111101010000100011110110000011011110011000000000
