0000000111111101000001101111100000010110000000001111110000011011
0000101011101101111011110001010100010000000101101111110100000001
0000111100000000111110100001100011111111111110100000001100010110
0000100100000010000111100000010011110010111001110000101100001100
1111011000001001111110001111101011110111000000001111110000011000
0000000000000000000101110001001000000000111111110001001011111101
0001010000011001111111000001100000001011000110100000110011111001
0000010011110101111101111111000000000010111111101110111011110001
0000000000001101000110000000111011100000000101011101001100100101
1101001100001011111100100000001011000100000010101101000111110000
1101011000111111000001101101100000010101001000111110010111000110
0010000011110011001000110000000111011010111001100000000011110000
1111011000101011000000100000010111101001000110100011110011000111
0011011000100011111011101110011111011001111110110000101011111111
1101100111100001111000111110110011010001111000011101011000001011
0011011100011110001100110001011100010010111110100001111000110100
1111000111111011000100110001000100101110111111010000000000000010
0010001011110010111101100001100000010100000000001111111011111000
0001010111101011000101101111011111101111111011100001000000001010
1110110100000000001000110001010111101110111010110010011100001001
0000010011100010000010011111010011100100111000111111111000010100
1100110011100110000100100001010100010111000000000010010000010011
0010000000001100111111100010010100011000001000000000101000001000
1110011111111001000000101101001011101011000101101111000000000110
1111101000001010111100100000010011101011000011010001001111111001
0000001011110110111100101111011111110100000000111111101000000011
1110111111110100111100011110111100010011000001111110101011111010
0000000000001100000100110000010000001101111110010000000111110101
0000011000010100000100000001010111110011000000000000100000001100
1111000011110101000000101111001100000110111111101111101100001011
0000110100010011000010010000000000001110000011101111011100001101
0000010011111011111111101111110011110010111110010000100000010011
0000100111100110000001011111001000001101111001000000011100010000
0000100011110010111010000000000100001101111100111111110011110000
0000011000010010110110110000010011110000000100101111100000001100
1110111111110111111101011110100100011100111110111110000100001100
1111101100001010111100111111000100001111000001011110010000010000
0000101100001101000010010000100111100011000001011110110011100001
1111101111100011000010110000100100011101111101010000000111111101
0000000011110010000010010001001000010000000000001111001111100111
1111001000010110111110100000000111100101000000111111000011110011
0000101011110101111111111111110111100010000011101111010000001001
0000010000011000000001100000000000011000000000111111011111110011
0000000000001001111011000001011111111101111011010000011100001000
0000101100011000000000101111010011111000000110110000000011111011
0000110111111111111111010000001011101010000100000000110000001111
0001001000000000111001111111111011110110000000000001000011111100
0000110000011110111101101111110100010111000011110001000100000010
0000010111101001110111111110111000100011111111010000111011110001
0010000011110001000000010000011100001000111111100000100011011000
0001010011101100000010010010100111110011000000100000100000010110
1111110000000000000010001111110011110011111000010000010100011001
0000100111100010111100000000111000000101110111111110011100100101
1110100111100000111011100000000100010000000011010001000111101010
0000001111111011001000000010111000101000000110010000100111110011
1111011011100000111101011110001011011101111111011110110011100110
0000010100001011000001101111000011001101000000011110011100000010
0000000000001010000000101111101011010001000100001101111111111011
1101111100101101111101001111011000101010001000011111110111101011
0000100111111110000000111111001000001001111101101111111111111001
0000101100001100111100100000111100000000001001010000011011100110
0000011100001001111111111110111011001110000010010001001000010001
1110010011101111110101111110111011101111000001101110011100010010
0011010000011011001001100001001100100101000000010000011100000011
1110101100001011000010001111010111111101111001110001111011110010
1110111011111111111100100000111000010100111101111111101011111101
1111110011111011000001000001001000000011000011111110111100010101
1101011000001001000000010001001011111111110111111111010100000000
0000111100000001000101000000110011111011111100111111001100001011
1110001111111010000101100001100011101010000100011111000011110011
0010010000000000000000110001001111110110000110000010010111111011
1111100111110001111001111111000111101101111010011110011011111001
1110111111110111000000001111011100001110111101111111011111111001
1110111000001001000011101111001111110100000100101111000000000110
1110111111110000111111111111001100001101111111111111110111110011
0000010000010110111110101111001011110000000101000000011000001000
0000011100001011000010100000110100001000000001100001010100001001
0000011011111001000000010000111100001010111101011111011100000111
0000011100001111000011000000001000000100111010001111101000000010
1111010111101100000100000000101111101111111111000000110000001101
0001101111110101000010101110100000000111111001100001000000010101
0001010011101110111010100001010100010011111110000001111011111100
0010001011100110000001110001010111101111000001010000001100001001
0000110011111010001001111101011100000111111001000000100000010110
1110010111101011000100101111000100011011110110001111101100101001
1110110111110111001000010010001000001100111110110000110111100010
0001010111110111001001000010001100000101000100111111110111110000
1111111111110101111010101111000011101101111101111111110011100100
0000111011111100000100011110011100010100000000110010000100010000
0000001000000101000001110001101000101101111111010000111100000110
1111100111110101000100000000100011101100000010010000110100100011
0000101000001001000100000000000000000001000000001111010011111010
1110110011111110000000001110101100011011111100011111011000000100
1101101111111110000011100010100111110110000100110000101011011001
1111110111100111000000000001000011110010001000011111001000000011
1111011011101011111000101111101111110011000111001110000111101101
1111000111101010111100100000111100100001000000100001111011110110
0001000111101011000100100000110100010011000001100001000100000110
0001110011101010000000000011100011111001111001100001010100100010
0001000100001011111110011101111011110111000011000010111000101011
0000100011100101000011000000111100001100110111001110000100101011
1110010111011001111110000001110100110110111011100000011011110011
0000010100100101000100000001011111111001000001100001010011111010
1101101111100001111000001110100011011100111101001111011011101001
1110100000001011111110010001101100000011111010011110000111101001
0000010000001100000110011110000100010000111010000000110000000101
0000001011111000000000000001110111110100111011100001000111111011
0000101011111101000010001111110100001000111100100001100011110110
0000111011111100000000101111100011100110000001101110000000010100
1110000111101111111010100000000000100111000001001111001000001000
0001010000010001111111111111110000001110000001010010001000001100
1101110111111100111100001111010111101000111110011111011111111101
0000111111111010000010011110111000000110111100101110010000000000
1111011100010100000101011110110011111111111110111111011011101111
1111011000000101000001100000100111111101000000100000011011111101
1111110011101100000000011111111111110011111101011111111111101110
0000000011111111111110000001010000001101000001111111011000000011
1110110000001010000011101111101000010001000110110000000011111001
0000001100001000111001110000010111111011000100010000001100001110
0001000111111110000000001111011111110101111110110000010100001000
0000000000000001000001010000000000000111000001001110100011110001
1110101100010010111100011110101000001011000011111111100011111111
1111110000001000111001011111100000000010000101000001000011111001
1111000000000000000000100001010111101011111110101111001111101110
0000111011111111111000011111100000000111111100111111110100011000
0000001000000011000100000001001000000011000011001111110011101011
0000010000010010111101111110101100010111000101000000110011110100
0000011011111100111101101111101000010101000000010001101011101101
1111100011110110111001000001000100011100111001100010001100000000
0000001111110001000010101111100100001100111010100010011011111000
0010000011111011111011110000001011101110000001010000101100011100
1110000100001011000000001111101100010110000011100000001011110010
0000010011101111111011100001000111111110111111111101011000101111
1110110000000100000100010000101000000000111110001110100111111000
0001111000000000000010100000100100101110000001010001101011100111
1111010111010001110110111111110011011111111110011111111111100110
0000000000001001111101000000010111111111000101011101111000000001
1110110000000010000000101111001000000000000101011110111011111011
1111001000001001000010110000100011110110000000001111000011100010
0001100011110111111101100000101111101110111011001111100111110100
0000000011111110111010010000110011100101000010100001100011101101
1111101000000111000010001111010011111101000011110000001100001011
0000010000010010111001101111100100001001111111100000000000011100
0001011100011000000111001110110100001001000010100000100000000010
0000001111110011000000110000111111110101111010100010100111111110
0000101011010111111011101111110000001101111100111110111100010010
0000001011111011111111110010011100000101001010011110110000000000
0001000000001110000001111101011000001011000000011110011100010101
0001011111110000000000000000100011110010111000111111011000001111
0000100000001010001000110001101000000010111110101111010011110101
0001010111100001001001101111110000001000111110101110110000001010
0000101111011111111110100001000100001000111001101110001100000010
1111010100010110000000010000101100000000000001110000010100000001
0000101000001010111101110000101011101000000011111111001100000110
1111011100001011111111101111111000010000111010100001000111100111
1111100100000011000101010000110011101100000000001111010100000101
0000001100001010111011100000100100001111111111000000110111101101
1111111100010011111010101111011100000010000011011111100111111001
0000000111110001111110011111010111111001000011111110101111111111
1111101100011010000110001111000100010001000100001111100100001111
0000011100000000000010101111111011110100000010111101111011101010
1111110100000111000000001110111100000000111101111111000011101010
1110001100010000111101111111111000011101000010000000110111100110
0000101000001001111110000000010111101100111111001110100011101100
1111001100001000000000001111001111110001000111000000100111110111
0000000011111110111010000000110011111000000100010000100000010011
1111000000000101111000010000011111110101000000101110110100010001
0001110100011000111101110000110011111000111011010001101100001101
1111011111110010000001111111100111101001000000001110100000001011
1111000011111011111010111111110111110001000011101111001100001111
0000101100001010111111101110011111111001111110011110111100000010
1111110011111110000000111111000100001011111101101111000111111110
1111000000001001111101011111110011110101000101110001100100001010
0000011100001101111011101110111000000110000001010000011000001110
0000100100001001111100111111101011111111000011001111110000000010
0001010000011001000001101111101111101111000000010000110111111010
1111001011110001000001010001011000011101000000000000110100001000
0001110011101110111000110010101000010010000000000000010011100101
0001000111101100000001000010011011101101000101111110111100001111
1110110100011110000111001101000000010000111100000000000000000100
1111111111100100000101111111010111111101111001101110100100100111
1111100111101001111110110000101100000000111111000000010100000011
0000101011110001001010000000111000001000000101100001101111100000
1110000111011011111000001111001111111100111001111101101111100111
1101010000010000000100110010001000011000111100100001011111100101
0001010100000001000000000000111111110110111001011110011100100111
1111010011100010001001100001011011011101110100000001001100001100
1101001000011000111001110000111100001000000100010001101000000010
1111101011111100000100100001101011010110000100100000111111110111
1111010011001110111011001110001100001111111101001111001100001001
0010011000011110000010010000000011111000000010110011000000100101
1110011100001000111111001111000011110001111110101111101011110101
0000101111110110111111001110101100010011111101100001010011101110
0000011000000000000000000001011100000101000000000000110111101111
0000001011100011111001110000000011111010000010001111110100001010
1111001111111000000100001110011100001000000000110000000011110011
1111001000001010000000110001010000000011000000001111110100001001
1110111011111011000101010001011100001111000100000000110111101110
1111111111111011000000001111101100000111000110000000001100001100
1110101111011111111111010000000111110011111011011111111011111010
0000111100000001111111001110111111110110111101100001000000011000
1111101011111100000000010000100100001100000000010001011011100100
1111100011110110111000011110101100000010000111000001101000010110
1111100011110001001000011111111000010101111000101101100011101001
0000000000001111111101001111010000110010111111010000000000000100
1111001100010111000000110010110111010110000011110001000011101111
0000011011100010111101110001000100001100000000000000001111101000
1111010100000110111011101111111100010111000000001111001111100111
0000010000011110000000110000000011100011111111010000000000001010
1110010011111010000011100000010111110011000010101110010000000111
1110111000010001000011011101100000001000111111111110011011101000
0000110000010001000011010000101011100001111101101111111011101011
0000101000100110000011011111100011101110001011100001010111010000
0001011100001001111101011111001111011100000011001111011000001110
0000000011110010111000011111110111110000111111011110111100011001
0001100000100010000111001111001000011100000000000010101000000101
1110011000011001000101000011110011101110111010011111100100001100
0000000011010110111011101111111111100110000101111110100100101101
0000010100001010000101110010000100001001111100001110101011011111
0001101100010110110111011101000000000010000101100001001100100001
0010111011111011000111011111101110111111000011011111101100000001
0010001111100101111101010000100000100010110100011111001000000110
0000000000100001001011011110110100000010111001000000000000010010
1111011100001100000110100001101011111010110110001111011100001111
0001000111100010110111101111010000100010111100010001010111110100
0000011100001001000001000000001100001010111001000001100111101011
0010010111010110111111000000100011101100000011000000111100001001
1101101000010011000010101110110100011000111100111110001000000001
1111011111111001000100000001101000010101110111001101011100011111
1111010111101001000101100001001011110110000100100000110111101110
0000111011110101000000000001001100101000000011100000000011110011
1101101111010100111101001110101011110011000001011110110111100101
0000110100001101000010100000000111100001000011111110000000000000
1110101100010100111101000000100011101111000111101111000011110000
1111101100000110000011101101111000000001000000001110110011111101
0000110111111000000000001111011111100000111100000000101011111100
0001100000011000111111001111011111101101001000100000000011010110
0001010011110101111110001110101011100010111110111111110111110110
1110111100010111110111010001001111100110111110101111001000001010
0001110100101111000010010000100100001101000000110010001000101001
0001000100010111111011001111110111101001111111001110101000000000
1101111000000010111100110000000011001110000010011110101100000000
1101101000101101111110011100111100100100111110000000001111101010
0000000011110011111111110000101111101011111100101110110111100010
1111101100100001111111011111011111101111001000010010011011001111
0000110000000110111100111110011111110010000010000000000111111010
0000010111110011110110110001001000000010111000001111110100001010
0010000000101100000110000000111100001001111101110010000100100001
0010110111101010110111001100000011101000111000001110011011101110
1110101100101000000101010000110111111000000000000010101110101110
1111101100011001110001010001000111111110001001000001100100000000
0000111011110010001010110001000000010110110001101010111011110110
1111101100000001110010100000110100101011000000001111011000001101
1111111100100011000010000001100011010010001111001111101011101001
1111101111001110111010010010011100010110000110001110001111011100
0000110111100001111100001110110000000001000000100001101011110000
1111101000010011000001001111100100000100111110010000101100010011
1111111000001000111110001110110111100111000010100000001000000000
1111001100000001111101111110101000010101111011110000101100000001
1111111011111100111110101111001111111100111011110000000011110110
1111010011110110000100100001000000001101000100100001000100000000
0001011100000110000000000000101000000011111101110000110000010111
1111010011101101111101011111000100010000111101101111000100010100
0001001000010000000110011110110100001111111110000000111100000001
0010011011110110111101001100000011111011110111110000001000001110
1111010000101100111101000000100100000100111010100010001111000010
0000000100100100110110001111100000011000001111000000111011111110
0000000011110010001000001111110000001011110111101011011111101110
1110110100011011111011010001001000010000000001000000111100000110
0000000000011001000101100001011111001000001101011111000111001111
1111000111100101110100001111110100010000000011001111100011101111
1111011011101010000010101111111100010101000011000001101111110010
1111010111111110111111100000000011110100000000100000011011110010
0000011011110000000000001110110100001100111100001111000000001011
0000010100010111000010001110100111111011000100001110011100001011
1111111100000011000001001111101111111000000000001111110100000011
0001001100000111111101001111010000001001000011100000110011110000
1111011000010011111010101111001100000010000101101111101011101011
1111111111111101111110001111000100001001000000000000010100010010
0001100000000000000001101111001111110011111101010000100011111011
0000100100000110111100100000100000001011111100100001001000000111
0001010011101011000010101111111111111101000000001111101011110010
1111011111111101111110011111000100000110111110110000011111101101
1111010000011001111000111111000000000001111111011110100100001011
1111100000001000111100010000001011101011111011111111001100000011
0001010100001100000010110001011111111010000100011110001011110011
1111100011100111111101111110001000011110000000010000100111101111
0000011111100110111010100000011000001101111100010000001100000001
0001000111101101111101001111111000101101001001111100110011111010
0001001000011110000110101111011100011000000001110000101011110010
1110110011110001001011101111000111111111101100100001010000010100
0000010111011000001001110001101111011100110010100010110011111001
1111001111110110111010101101110111111011111101011111110000001101
1100111111101011111101001101110100011110001111010010001111111110
0000100001000100110111110011000011110111000011110001001100011011
1111100000110000111111101101110111101010001100100001111000010111
1111101111110100111000000000111011101000111100000000000011011100
0000111111110000111001001101110111100010111101100000101100001110
0000010111110010111000011111100000010100000011111110001011110010
1110101100001010110111101111100100011111000001101111101111110111
0001000011101101000000000001100111100100111111101111111111101110
0000100000000111111101101111011000001110110110111110000111110101
0001000000001000000000001101100000011000000000100000110111100010
0000001011101110000011000010001011111011111011011110011011111100
1110101100011110111001011111110111011100111001010000100011111000
0000011011011111110110101111000011110011000001000000100111111010
0000010000000101111001110000100000000000001000011101011100000100
0000110000000101111011001110000100001101111101011110010011101111
0000111000011000000010110010000011101001000010001111110000001001
0011000000010011111100110001010111111000111001101101111100010010
0001010011111010001000111100101100010000111110011110110111111110
0000000011110000000100010010001011111101110110010000000011110011
0000110111101111111011100000000011111011000011011111110000000000
1111110100010111111100001111011100000010111100100000011100000110
0000000011111010111100101111010111111101000010010000010011111110
0000111011101011111011110001100011110010111001101111010000000101
0000000000010011000001111111111000001000000100101111100011110011
0000111100001010000000001111101011100101000001000000110011111111
1111010000000000110111110000000000000001111011001110111111110101
1111111000011001000010111110110111111100000100110010000000001001
1111111011110101000001011111111111110100111110101111101000000010
1111010100000001111111111110110011101110111101000000100000000100
1111010100011011000000100000011100010010000011111111101011100101
1110111111111010000100100000101111110100111011110001000011111111
1111011000000100000001000000011011101110000101011111111111111101
0000000100010110000010010000110111100010000000001111011111101101
0000000111110011111101110000101111101100111110101111010100010110
0001111100000100111110110000111011110110000100000001110000010101
0000000100010111000100011111001011001101111110110000001000010111
1101010100100010111010000000000011011100000000111110110111110010
1101101100011101000011101110101000011001001101111101011011100001
0010100011110111000100001111011111111001110111011110010000001110
0001001100010010000100111110101100000100001010000010010011011001
0010000100100110000000000000011011001011000111001110111111111111
1100111111010101111010000000000011101011110111111101100100011011
0001111100010011000101010001011100011011111110000001011000010101
0010011011100001110110111100100100001101111101001101110011110100
1110100000010111000111100000101000010010111010110001010011011100
1111111100001111111010101110110100000110000100100001110100001101
0000000100000011000001010010101111101011110110101100111111100110
1110110011111100110010010001000000011001000011101110010000011011
1111000100000100111110010000000011011111010000111111010011101011
0000100111110011110101110010010000000111001000111110011011100010
0000100011110101111000011101001000000011000101000001010000000111
0001000111111001111001101101100000011011000011011110100111111111
1110011000101100000011110000001000000011111110010001001111011100
1111101011111101000000000000001100001101111101111111111100001100
0001111111100101001000100001001111011111111101011110111111101101
1101101011111000110100000000010000110110111001101110001000011011
1101111100011010111011111111111111011110001010110010100011101100
1110001100001111110100100010110000011110001000100000100111100100
1110101011101101000000011110000000001100000110000001000000010000
0000010100011011111101100000001111100001111101011110000100001001
1110000000010110111101011111111011100100000000001101110111111100
1110100100101010000011101110110000101010000011011110001011101100
0000101111111110000101010000110111111111000010101110110111101110
0000111000011011000000101110101011110000000110100010100111010111
0001101000001011111101100000001011111001000111100000001100000001
1110110100000101110110100000100000000000000000001110001000100010
0000111100010111001010001111011000010111000110100001110000011000
1111101111110010111010000010001000000010000001000000101100001111
0000010111011101111000001111001100010001000000101110110111111010
0000110011110001111100010001111111111110111100000000000011110001
1111101100000011111001111110111111110011000110001111100100001000
1111110011101100111110011111111111101111111111101111001100010101
0000010111110011000011000001101000100010110111111110100100000100
0000011100011001001001011110101100011011111111110001001000000000
0000111111101001000010110001011000000000111001101111001100001101
1110000111101101111100001111110100010111111010100001110111010111
0000010111111111111100101111111100100011110110000001100100001110
0000110011001010111111000001000011011001000001000000110000100001
1100100000001101111000010000011000001000000111010010000111111000
0000100011011001001000110010001111110111111101011110100000010101
1110101111011111111011100000011000010101111111110000010111101011
0001001000000001000011011111111100011011000011000010100011100111
1101000011010101110011101110100111010011111111101110000011101000
1111010111101010000001001110111100110001000000000010110000001111
0000101011101110111110010010000100100100111101100010011011110111
0001101111001000111000100000110011010110111111010000011100111010
1101001000100001000000001110100100110010000101101110110000000011
1110011111001011000001110000011000100111110010101101110100110000
1101100000000001000111100010011000001111000000010000110011100001
0010111111101010000111011110011100010001001010100000110111100100
1101100111000101111100111110101000000000111011111110111111011100
1111011100010100000100011111111011111011111111001111111100010010
1111101000000110000101100000011011111101000101101111011000000100
1111010100000101111100100000110111110000111000111111101100001101
0001001011101110000010111111011011110010111100111111111100010111
1111001000001101111110001110101111110101000000100000001000001010
0000000011110110111111010000010100000111000011110001011000010110
0001000011110110111111000001000100001101000001010000011000000100
0000000011111101111111010000100000010100000000000000101100010100
1111110000011001000100110000000011110011000011111111101111111101
0000000011100110111110110000001111111001111101111110000000100011
0001000011110011000000011111111011110110111000011110101000001001
1111111000010011000000101111100111110011000110010000110111111010
0000110111110110000101100000001111011100111110100000110011110111
0000100111110110111110001111010000010111111010001111110000100000
0001000100011010000110101110101011101110111010001111110000011011
0001010011111001000101100000000000001110000000011110111100010111
1110111100000100111111100000110111110110000000101101101000001111
1111110100010001111100100000000011010000000011001101111011110001
1111011000001000000100001101001100100000000000000000001011100010
0000000011101110000101100001001111011111111100001111111011101101
0000000000101110111100100000111100000001000100100010000111001100
0001001011110101111011101111100011110110000000100000000100010011
1110000100001000110011111111100100000011111011001110011100001010
0011011000110011000010011111101000100010111101010001111100001100
1111001000000000000100001111010011101110111110101111010000000000
0000100011111111000000011110100011110011111110001101100100010000
1110001000001111000011011110111100011010111101110000111011100100
1111101011101011000010100000100011110011000000111111110100000000
0000000100001011111100111110110011111101000011101111100000000000
0001001000001110000001011111001100000100000001110000101100000100
1110111000000110000001011111000011101111111011111110001000011000
0000110100011010001000110000010100011101000010000000100000010111
1111101111111010000000000000010000010110000000110001101100001011
0000001111110001111111010001101000000111111010010000000011111000
0001111011011011000110110001010111100010110110110000110000000000
1111001000011000000101011111001111111000111110000001100000001101
0000111011101011000001101111110111101011111000111111010000001011
1110001111011101000010000000000000101000000000001111111100010010
0000010100000000001001100000110100010101000110100001001000000010
1111011000001010000001101111101111101010000011011111010011101100
0000001011111110000000011101111011010111111001000001010000001000
1110011100000010111100010000111111101110111110010001100111100010
0001011000000010111001011111010000010101001110011111101011111010
1110100000001110111000011111110100110000000011001101010011110000
0000110111101110111100100000011100010001111101100000010011110110
0010100100010010000011000001010111100100000001101101101111101100
0000001111001101111110101101001011110010000001001111011011011111
0000101011100110111101110010011011111010110100110000011011111101
0001000100000110111111001110001011111100000000100001100111111101
1111010000000001000010000000001100011010111101100000111011101110
0000010000001111111001100001100000001101001000101111011100010110
0000010111110010000110001110011100100001000000000000000000000110
1110101100000101111100111111001100000100111011101111111100010100
0000101111111100000101100000110111111100111111111111011011101000
0000001000000000111101010000111000001001000011100000100000000101
1111110111101010111100101111100100000001111111111111110111101011
0000111011111001111000100000110100000011000001000000101100000100
0000010111110001111111110000100000000010111101000010001100000110
0000001011100100111111100001110111101110000000001111110100100000
1110010100011100111111001111111100011111111110010000011011111111
1111010111111000000001010001111011110000111110001110110100011100
0001000100001111000000001111011100001001111011010000000011111110
1111110011101011000001011101111100000110111110100001010111101111
1110000111011110111101000000001011111100111100011101111100000011
1111000011111000111111010000111100011110000000111110110011101111
0010000011101101111111100001010100100011000010111111101000000010
0001000011011110000000010001011100000011110110000000111100010110
0001001000000110000010101111111111100000111101100001100100000011
0000110111100100111100100000101111110101111101101111001000100100
1110011011100010111011101111110000000111000011010000111111110110
0000001000011100000100000000111100011101111111100010010000000010
1111100000001000111001001101101011110101000010111111000011110110
1110101100000111111100101111110000100010000101111110011111101010
0001001000011000000001010001011000000010000011000000000111110110
0000000111100111000101000000010011100110110110110001110000000001
0000101011100010000100001111111111100011111100000001000111111110
1110100011110010111100100000110011110001111110111111000011111000
1110100111011000111110101110101100011010000110110010011100011110
0000000100010001111100010000100100000101111111000000110000100001
1111011000010100000011001101110011100001001001100001001000000101
1111100111111101111110001110010011111100111101010000110011111011
0001001000010010000000001111001011111101111111110001010111011011
1111011111111001110110110000110011101110000001110000111000001110
1111100100010001111011110000011100001001111001001111000011101001
1111100111110101110111100001001000010111111111101110001000100100
1111010111111001111101000001000011101011000010011110010011101011
1111011011101001111011011111010000101010000000101111000011111101
0000000011011101111001111111110011110011000000001110111011011111
0000101000000010000001011111101011101010000011101111001100001111
1111010000000000111111001111000011111000000010001111001011110010
0000100100001000000000101110101000010111000100100000000100001000
0000110100001101111101011111111011111000111100110000011011110000
0000101000010100111110100001010011110010000101000001010111101001
0000011100010100111011001111000011100100000100100000101000000101
0000000011101100000000001111010100001000111011101110111000010011
0001000000000011111110101111000000010011111110010000111000010011
1111110011111101111101010000010000000100111111100000100111101100
0001001111111000111010101111111000001100000100100001101011110110
1111101000000011000011110001011111100100000000000000001000001101
1111010100000100111101110000011111110010000100110000101100000011
1111011011111001000010001110101111111110000000000000000000011100
1110111111100101111100101111100000011001000000001111010011110110
1111001100001011000011101111110100000000000101110001010111100111
1110100111111110111011000000011000000000111101100000010111110000
1111110011110101111100101111011000000000000000001111100111111101
0000110100000110000000100000111100011011111011010000010111100101
1111101111100110000000000000001000000010111110111111111100011100
1111100100001111001010111111111100011001110111000000110100001110
1111111011110010111100111111000000010010110111011101110100101000
1110010011100011111110000001110011101110000010100000001011011110
0000111100001100000011110001101000010010000001000000000000000000
1110011111111100111010001101110000000000000110010000100111101000
1111011000000011111011100000001000100100111100100010111111101010
0001111000000100000010010001010100100101111001110001011100000010
0001010111110011000000000010100011011110000011011111100000011011
0000010111111010111110001110001100100110000000001111100000000100
1111011011100000111111111111000000100001111110011111110000010010
1110010100001010000000010000001000011000000001000001001011111000
0000110011100100000100110000110100000100000010010001011011100110
1110101011010011111010100000011011111110111111111111000011111001
0000000000000000000011100000011100101111000001010000010111101110
0010011100000001111011110001101100101111111010000000001100001010
0001001111100110000000100010000011110111000010111111111100011101
1110111000010011111111001111101000000110000010010000110000010000
1111110111100010000011100001000000000011110100111111000100011110
1101010011010000000100000000111100100000111110011111001111110100
0010010100001101001010110001100000011110001001000000100111110111
1110010111100101111100001111110111100111000000111111101111101111
