1111110110111000110110010000100011111001000000011101000111110010
0011001111100110100111111010110111100101101010100010110000110010
0000110001000000111110001011110100010101111101011101010100100101
0000001100110110000101110010011100000100000000000010001011100011
1111110100001111111110011111010000011010001000011100011111110101
1101111000010000001011001111011000111000000000000010101000001011
0001000000100010001011111110100111101001101011110001101000100011
0010110010100010111100100100010011000010111110110000111000110100
0100010011101110101111110001001100001111101101011100100100111110
1101110101001000111000100001001011011110001011010100100000110101
1111100011101111110111101111011000010010001001001110000000100100
1111001111111111101111011110100011100111001011110101001000111000
0001101100011111001100010001000101000100001001101101101111100111
1110101111111110110110101010110111100100110110000010101101011011
0000000011110011111010011101001000100011001011001100011101000001
0010110011001000001001010000101011110100000101001110111000001110
0100000000011110001011101110100011011100000100100000001000110100
0011011100100000000010111101010100000000111100111101100000001001
1111010011011000000100011100010000110110111100100001111011111000
1011100000010100110111010010001000000001000100010011001000101011
0011110000110100000110101101100110101110001101111111101100010111
0010110011110111111100000010111000010010110111011101111111000110
0001111100010001000101010010010111001100001011000000010100010000
1110101010101010000101100000010111111110000111001110001100110111
1111111011001001110111000000111000100100111001011101100111000000
1101000011001000110010010100011111011101000010100100000011011001
0111010100010101111010101111101010110111000100110000101011010110
0010100011011111110111010010010000100001110101000001101000000100
1111001000101100000011100010100011100110000100010001100001000010
1011101011111011010001011110100111010001010100110011011100100100
0010100011101111110011111100000000000000111111100011100101000101
0010001101011111010100100010111000111111111100010001100100010100
0011100000100010110011111010101011110111000000001111101000011011
1010111110111001111110111011011111111000001000100101010011110100
1100110000011111110110100100000111010001111011100011111111101101
1101100100011101101100001011011011000010101010001001101110110010
0001011011100010001100111111000000010000001100110000010011010010
1111100111000011101010111101001111001001111000001011011100110111
1111010110110110110100001101000000000101000001101110010111101010
1101111111101001111100111100110100010001000111011101110111111011
1110000011101101111110101111001100110101001100000011000101111111
0011111000010001011010000011000011100000000100010000111100100101
1111110000110101010110111011101111000111000010110001011101011011
0100011001001001001001000001000000001001111011111101010111011010
0011101011011000111111100011100111001000001001010000101000011100
0011000000110110001011011111000111100101001010000001001111111111
0000111000000101101010001010001111000001111001011100111011110000
1101101000101111010100010000010000100000001000100001000100100101
0110111101010001110110100101000000101011110101110000111111111110
1001110011000010110010110001001111110101111011010010111001000010
0001101010110001010000110100011111110011111010001111011011010111
0011000000110000001110001101001011001010111000101011110011001001
1110001111111000010010010011101000110000001011101100001000000000
0100101100101100111000011011001100000000011000011110011111110001
1101100000010011001010011110011000110010001000100010111100100001
1111010101001011000010000011111000010000010010001111000111010001
0000001000001001110110011100101011000100010110010100110011001110
0000001100110011001110100010111011000010000110111101000011011000
0010111000100100010011110000010100011001110100011110101101001001
1111100000011111110101011101000111010001010111101111100010111010
0000000000011101110110111110110010111100101011001101001011101101
1110100011111101111011010001011100100100111000101101001011111000
0000000011010011111001101110000100000110111001000100101101000110
1100110111101101101011010010001100011101111011100010101011100000
1101000000010100111011011110011100101100001001000100101011111011
0011101101010101001100110010001010111010110011101111000000000000
0011111100111000111010010011101000100111111010011011100100010000
0000000000000010001001011111000011011111111111011111110111011000
1100010111000101001010000011111011100011000111100010001100010000
1111100100101101101111100011000000110100010001100101010000010000
1101010011100101110101011101001011011011001110100010100011001001
0001000100000000111011010011011100011000101101010011011011100110
