1111111111000010110010110001110111001011000110110000001000101111
0010010011110111000101010001000011110100110110101111100011010110
1111000111110010010001010010100111110100110011111111010011011100
1101001011111010000110110100001111110110010100010000100100101011
0010000110110101101100001100000001011010000011010000110000011011
0101000111011100010101000000111111010110010000011110110000010001
0000100011110001101111011110101000010010111001000011100101010001
0001110111001011001101000011011111010011001110010011110100101110
1101110011101010111011100000110011100101101101110010101100010001
0011011000010111000101110010001100100100000111101110000000011011
1100100111000111111010101101110000101110110110111011110001000001
0000000000101100001001001101000000001011001010011101110111100101
0011010100010010111110101111010000111001110111100010110100101010
1101010111010000010000110000011000111111000101010000011001001000
0100100011010111001000110011010100101010001101001101001111011001
1110000011110110001010001101000000001110110011111100011011101011
0001010101001101111100010001101001010011010000000011101001010010
0101000101000100110011111100110111101010111000101100100011111110
0001110100000001000111100001101000110000001100101110111100110100
1111010111011101101010001100011111000011110011100001100111011100
1101000000011111001111000100011111101001000111111110101111100000
1100111011010000110101110010000100011100000110100100100001001110
0011111000000000110100010010011111011111111001111100011011100010
1100111100101101110011001101101000001000101000101111100111011011
1100001000000000001111011101000000111100010110100011111111001011
1111101111110101001101011101101001001110000011011111100100010101
0001101100010101001010100010011111010001001111110011111000101110
0010100010111100110000110011001011001001001001111100001111001001
0010010011011011000011010100101000011000001110000000011110111101
0010111011101001111010011111111110011011010001110011000110111110
1110000000001010001000110000001111010111111111001110001011001101
1011100101010100001011111101111111101110000111000001111011010000
0010100001000011000000000001011101011000010010101111111001101111
1111000111001100001010011100010000101100110111000100110101000001
0010110001001001111011111101111011001011111000101011110000011100
0001001000011011001101000001111100000000110100011100011000101011
1111100000010011000100111101001100011011001011001111010111010010
1110001011100010110010101101011111010101110110010000000011100000
1111011011101111111001110110001100110010001001001111101111110100
1011000011011111000100111011101011111000010000010001010100011101
0000010100001011000000101110110000010001110110001100000000011101
1110100011111011001110010100001001100000110001001111000111110111
1100010011000101000000001111011111010101110011011100110000110010
1111001011011010110100101100111010110111110101110001110100011111
1111101011101100010011100100111101001010001100000010111000000100
1011111110111111010000011100000000000000000111011001101111011101
0001110111010011101011000000000011100011110110000001001011111111
1111101101010011000111010000101111101100110011100011011111111000
1110011000111001001001111111111011110100111001010000001001000110
0010000111100100010100110001111101100000001100100101000000111000
1110111000100111000001011011111111010000101111101100011010100101
0100011011111111111001010100010100101101111100110010110100011011
1011111001001100110111001100110011100000001011011111000100111010
0000110000110010111010001100011000000000111011011110000111001000
0000111100100101000111101101110000101111000010010011001000100110
1100101001011100110111100010110000010110000110111101011100011100
1100001010100001001100100100011001011000000000000100111001000110
1101001111001110000111011111011100010011100101010101101000101000
1110010000111000111010001111110011111000110110011110111011110111
0100101001000100010000010010111011000101000011000001001111001001
0010110111111011000010010010111101001000111011011111001101010011
0011010000110101001000001110111100110101110011001111000000101100
0011001011100110110110100000110011000110110010011011100011010011
1110000111000110110110011010111100001010111010101100001100000100
1101101000101111000100001011010111001001101101111011011011110001
1010000010110110000100111110011011101110101101011111111011111011
1100011111000101111110111111011000010010001011011100001111000010
0100000011010001110100100011110000010000110000111101110011010100
1100111100010011110010000011111011111101001010011111001011001010
0011110111010001110001100010001000101011111001111100111111000001
1100111111101111111010101100111100010110111111011101110111100100
0000001000000010000101111101101111000010110001111101110011100100
